00000000
bece3074
3e80a77a
bd5e33f7
3bd603f1
bd513710
3eac33a4
be3466d4
3e00d0e7
be51b30d
3e9205c5
3eef3c10
be00349e
beb5ef47
bd8fc6dc
bec36ee5
be732852
be63c1f3
bee02221
3e163a8e
3ee197ed
beb72960
3eb26cd3
3ee4537a
be8e1281
00000001
bed5f4a5
3e2087c8
be73420a
bed263f8
be400719
3d9a3fd1
3e69f06d
3e831876
bec3605b
bea943df
bea33810
be2ef691
bdf38fe6
3ee8359b
bdefb6ad
3e1c1d2e
be17811d
3ed941ca
be46891c
3cdf8a61
3d968583
bef8e498
beaddfa8
3d92b2dd
00000002
be8f4fbd
befe2947
be5bf9ce
be9dab32
befabdde
3edfad21
3cafb34e
3c065a72
3ea4713f
3ee34935
bee48d1a
3e703b80
3db6676e
be104835
3ede90cd
becfb3f8
3e90c6fa
3e67a67f
bde53f69
3e5c79ee
3ea226d8
bd43cd6b
3bf584a1
be052209
00000003
3e7bc938
3eb07ade
3d6a31d8
bed31510
3db3bff7
3ef41564
3e10eb2f
bcd5260a
3e8c410a
3d9bbbaf
3ea5837a
3efb2dc6
beb14731
bd8d4adb
3e955fff
3e67cb12
3e9e9fd4
3eb99941
3ea0f62d
be37d5fd
be92a296
3e9a2af0
bed3ee94
3e963f79
00000004
be8bc474
be20aaae
bcadc5f0
be05559e
3efd57b7
be49b80f
be9eeac8
bd31fa02
be18486d
3e8e53f7
3e0776e0
beee67d1
befe3456
3d9b4085
bed34df5
bdf88efd
3cf6a222
be7cfee5
bca2df9c
be10cd17
beb3ed55
3da5f145
bd8cdfab
be08e038
00000005
bea77f10
3e760e97
3de52fa9
3da9a4b9
3ef7fe59
be7fd053
3da36a0a
3e6358dd
3e93d250
3e004e9b
3e989431
be84f9e4
3e8c3784
3c43517f
be232bbd
3ebe38d2
3e8bcacd
be2730ad
3ed57f28
3eabaa41
3e10a4d5
3ecf4464
bcbfc5d2
3ebe4ef2
00000006
bd87748d
3db43860
be211193
bbfd70f1
3d46208b
bed82e54
be534bea
be98248e
3e99ca16
be2db11a
bda896e2
bef2886c
be14bdf0
beb19e16
bde41fde
3ea50c55
3eb8ea53
3ec924af
3e8f58f8
3ef41d0b
bef24597
3d638306
be87eb03
3eb2aec0
00000007
bedeb03f
3e709cc2
3ef4f34d
be0d9f0d
beb0d68b
bbfc19c0
3e386c7b
be2f8efd
3ead9bfc
beb5a838
3d17ba48
3efbc48d
3ec4da0b
3d9bd725
beebb23f
3ed27733
3ed13579
3eaecee7
be94224e
3df234dc
3e9b49d2
bdfe1c02
3ebcf4e9
3dd42d63
00000008
be873450
bed00d3a
bd59b12c
be8a5def
bedaee0c
be8f6dd4
bea27064
bec1bf9f
befc92f8
befe80d6
be387492
be1a0ec4
3ecc041a
beab00fb
be968036
3e426578
bd3db32e
be40fb60
3ece80f8
3eab4ed4
be352afd
bdb3e3b2
bd0cf294
3ec4b006
00000009
be67ead6
bece0536
bed2213c
3dd4c4a4
3ebb5053
bee10166
3d558a8d
3ee36107
3e6a7886
be7c51e9
3e075368
bd2b3f8b
bed1b264
3ec2c9ce
bd865147
be255b37
be1e9a1f
3e5f4c03
bdc8e2eb
3ee96040
3e119eb5
3d81d8af
3edf1dc3
3d96ace7
0000000a
3dac694b
3cb9d641
bebf0bab
3e32c088
bee4fa1c
bece8bc7
3e32f787
befbde96
beaac8b2
3eeedf2a
bdb68dc7
bd8bba75
beca4d20
3eccbadf
3e984eab
3ecd2959
beccbcaa
bcc20b8c
be682a50
3e0d1112
bee25e2c
3ec75b72
3e997263
bec227fa
0000000b
3e415420
bea4341d
bd15a1d2
bbdb8e45
3ee5844f
3d5e12f6
be59d35a
3a965335
beefe939
be8b7f4f
bed8131b
bd9873cf
be4ac587
bdb68bb6
bee38ece
3eafc2d3
be6c4d59
be99b7ea
3e95b00b
bec04894
bed4c19a
be0bec24
be13fb0d
3c672f27
0000000c
3de03a54
3e90d506
be15a949
3e8f4acf
bec0d306
3b6e47da
bd7f7baa
3b10dc3e
bebba643
3e0c48ff
3b16caaa
3c298c19
3e87f5c6
3efca755
3e42aa16
3ddf3c0d
be04386a
be8ac4e4
bdebe306
3db68b66
bd72d15d
3d9d148b
3e5518d0
bec03b10
0000000d
3d72a694
3dcaace7
3c128bec
3e250369
be4ae1aa
3ed4faa6
beca7d61
3e683133
3d220563
be44f8ba
3ed01885
befaaeb8
bef7c8ae
bdcb198b
be133c98
beb863cf
3e2d39b9
be56dfc9
be58f3d8
bdf1a303
3dcf4ce0
3ea99289
be9a67fa
3ee680d5
0000000e
beebf4ef
beb2fdd5
3efb1552
3bd865a5
bd2ef907
3ec15fbf
be871ee5
3d411e56
be47e21d
be3d39e4
3d11c486
3da6c544
be200d22
3ef2e4e3
3ec99a87
3cad8ccf
be5fc0fb
3dae75c4
bea19173
befcccf1
3e27b785
be96600c
bdda29e5
3e7be28b
0000000f
beeba560
3d842cba
bee5a173
3e0431e2
beeb2c51
be2cfd2b
3e00e3af
bd93660f
3d1e5d79
3d787396
3c9395f7
bd995b8e
bd6d2c43
3ea5848c
be020a56
3edfd800
be8e11fa
bbeaf416
3e72ad2c
3d2db3e8
3e9e791e
bdbd4799
beeec08d
3e8413e6
00000010
3cc74f5e
3e9c8174
bcaca86e
3e025c3e
bdfa79cd
ba346e71
bed8aac3
3df869cd
3e71cf5f
bece8602
bc0f31cf
3dbf5b54
3ed13a2f
3e9bbf7a
3e2068c6
bee99ebc
bee45503
3d77a87c
beeb9a9e
3e294439
3cb231e8
3d890dd7
3eca21e6
be9ecb49
00000011
beab520a
be32446a
be078a2a
3ef4fccf
3e187528
3ea67972
3bea6ad5
bedfd651
3e9aa9e1
bdef4520
391cf3fd
be926b3c
3eca5c36
3e6fab75
bcc784c6
3ef9dded
3ce033a4
be09afd3
3edb2a59
3eea525b
bcd1b2a1
3dfd793f
bc34071f
be892da7
00000012
bed9a507
be82c825
be80bac7
3e1b2601
be838fbf
3d0869fb
3dddd747
3e28aa00
beb4f6c4
3ea72dc9
3ece140c
3eb6b56a
3e4b5913
beae8420
beadd157
beea9879
beee2409
3e3caeb5
3ef3a8f4
3c2cca8a
be9cdf02
bbbe73be
3e46a071
bed699e2
00000013
bddf880a
bed2e61f
befc84ec
beba1d24
3c85c5d5
bd36f6c8
beb91ba4
be567b19
3ebd4d01
bddc61b9
beb32d8e
beba7b9d
3ebf09eb
be74b986
bd1afc73
3eb0a7f5
3d93c1c6
3c9dcc76
bd564787
bec89d3a
beb20bc0
bef058a7
3e4e2097
be8bb343
